00000000FFFEFFFEFFFEFFFEFFFE000000000002000200000000FFFE00000000000200020002000200000000FFFE00000000000200020002000200000000FFFE00000000000200020002000200020002000000020002000200020002000200000000FFFE00000000000200020002000200000000FFFE00000000000200020002000200000000FFFE00000000000200020002000200000000FFFE000000000002000000000000FFFEFFFEFFFEFFFEFFFE000000000002000200000000FFFE00000000000200020002000200000000FFFE00000000000200020002000200000000FFFE00000000000200020002000200020002000000020002000200020002000200000000FFFE00000000000200020002000200000000FFFE00000000000200020002000200000000FFFE00000000000200020002000200000000FFFE0000000000000002FFFEFFFE00000000000000000000FFFEFFFE0000000000020002000000020002000000000000000000020002000000020002000000000000000000020002000000020002000000000000000000000000FFFE0000000000000000000000000002000200000002000200000000000000000002000200000002000200000000000000000002000200000002000200000000000000000002000200000002000000000000FFFEFFFE00000000000000000000FFFEFFFE0000000000020002000000020002000000000000000000020002000000020002000000000000000000020002000000020002000000000000000000000000FFFE0000000000000000000000000002000200000002000200000000000000000002000200000002000200000000000000000002000200000002000200000000000000000002000200000000000200000000000000000002000200020002000200000000FFFEFFFE00000000000200000000FFFEFFFEFFFEFFFE00000000000200000000FFFEFFFEFFFEFFFE00000000000200000000FFFEFFFEFFFEFFFEFFFEFFFE0000FFFEFFFEFFFEFFFEFFFEFFFE00000000000200000000FFFEFFFEFFFEFFFE00000000000200000000FFFEFFFEFFFEFFFE00000000000200000000FFFEFFFEFFFEFFFE00000000000000000000FFFEFFFEFFFEFFFE00000000000000000000FFFEFFFE0000000000020002000000020002000000000000000000020002000000020002000000000000000000020002000000020002000000000000000000000000FFFE0000000000000000000000000002000200000002000200000000000000000002000200000002000200000000000000000002000200000002000200000000000000000002000000000002000200000000FFFEFFFE00000000000000000000FFFEFFFE0000000000020002000000020002000000000000000000020002000000020002000000000000000000020002000000020002000000000000000000000000FFFE000000000000000000000000000200020000000200020000000000000000000200020000000200020000000000000000000200020000000200020000000000000000000000020000000200020000000000000000FFFEFFFEFFFEFFFEFFFE000000000002000200000000FFFE00000000000200020002000200000000FFFE00000000000200020002000200000000FFFE00000000000200020002000200020002000000020002000200020002000200000000FFFE00000000000200020002000200000000FFFE00000000000200020002000200000000FFFE00000000000200020002000000000000FFFE000000000002000200000000FFFEFFFEFFFEFFFEFFFE000000000002000200000000FFFE00000000000200020002000200000000FFFE00000000000200020002000200000000FFFE00000000000200020002000200020002000000020002000200020002000200000000FFFE00000000000200020002000200000000FFFE00000000000200020002000200000000FFFE00000000000200020000000200000000FFFE000000000002000200000000FFFEFFFEFFFEFFFEFFFE000000000002000200000000FFFE00000000000200020002000200000000FFFE00000000000200020002000200000000FFFE00000000000200020002000200020002000000020002000200020002000200000000FFFE00000000000200020002000200000000FFFE00000000000200020002000200000000FFFE00000000000200000002000200000000FFFE000000000002000200000000FFFEFFFEFFFEFFFEFFFE000000000002000200000000FFFE00000000000200020002000200000000FFFE00000000000200020002000200000000FFFE00000000000200020002000200020002000000020002000200020002000200000000FFFE00000000000200020002000200000000FFFE00000000000200020002000200000000FFFE00000000000000020002000200000000FFFE0000000000020002FFFEFFFE00000000000000000000FFFEFFFE0000000000020002000000020002000000000000000000020002000000020002000000000000000000020002000000020002000000000000000000000000FFFE0000000000000000000000000002000200000002000200000000000000000002000200000002000200000000000000000002000200000002000000000000000000000002000200000002000200000000FFFEFFFE00000000000000000000FFFEFFFE0000000000020002000000020002000000000000000000020002000000020002000000000000000000020002000000020002000000000000000000000000FFFE0000000000000000000000000002000200000002000200000000000000000002000200000002000200000000000000000002000200000000000200000000000000000002000200000002000200000000000000000002000200020002000200000000FFFEFFFE00000000000200000000FFFEFFFEFFFEFFFE00000000000200000000FFFEFFFEFFFEFFFE00000000000200000000FFFEFFFEFFFEFFFEFFFEFFFE0000FFFEFFFEFFFEFFFEFFFEFFFE00000000000200000000FFFEFFFEFFFEFFFE00000000000200000000FFFEFFFEFFFEFFFE00000000000000000000FFFEFFFEFFFEFFFE00000000000200000000FFFEFFFEFFFEFFFE00000000000000000000FFFEFFFE0000000000020002000000020002000000000000000000020002000000020002000000000000000000020002000000020002000000000000000000000000FFFE0000000000000000000000000002000200000002000200000000000000000002000200000002000200000000000000000002000000000002000200000000000000000002000200000002000200000000FFFEFFFE00000000000000000000FFFEFFFE0000000000020002000000020002000000000000000000020002000000020002000000000000000000020002000000020002000000000000000000000000FFFE000000000000000000000000000200020000000200020000000000000000000200020000000200020000000000000000000000020000000200020000000000000000000200020000000200020000000000000000FFFEFFFEFFFEFFFEFFFE000000000002000200000000FFFE00000000000200020002000200000000FFFE00000000000200020002000200000000FFFE00000000000200020002000200020002000000020002000200020002000200000000FFFE00000000000200020002000200000000FFFE00000000000200020002000000000000FFFE00000000000200020002000200000000FFFE000000000002000200000000FFFEFFFEFFFEFFFEFFFE000000000002000200000000FFFE00000000000200020002000200000000FFFE00000000000200020002000200000000FFFE00000000000200020002000200020002000000020002000200020002000200000000FFFE00000000000200020002000200000000FFFE00000000000200020000000200000000FFFE00000000000200020002000200000000FFFE000000000002000200000000FFFEFFFEFFFEFFFEFFFE000000000002000200000000FFFE00000000000200020002000200000000FFFE00000000000200020002000200000000FFFE00000000000200020002000200020002000000020002000200020002000200000000FFFE00000000000200020002000200000000FFFE00000000000200000002000200000000FFFE00000000000200020002000200000000FFFE000000000002000200000000FFFEFFFEFFFEFFFEFFFE000000000002000200000000FFFE00000000000200020002000200000000FFFE00000000000200020002000200000000FFFE00000000000200020002000200020002000000020002000200020002000200000000FFFE00000000000200020002000200000000FFFE00000000000000020002000200000000FFFE00000000000200020002000200000000FFFE0000000000020002FFFEFFFE00000000000000000000FFFEFFFE0000000000020002000000020002000000000000000000020002000000020002000000000000000000020002000000020002000000000000000000000000FFFE0000000000000000000000000002000200000002000200000000000000000002000200000002000000000000000000000002000200000002000200000000000000000002000200000002000200000000FFFEFFFE00000000000000000000FFFEFFFE0000000000020002000000020002000000000000000000020002000000020002000000000000000000020002000000020002000000000000000000000000FFFE0000000000000000000000000002000200000002000200000000000000000002000200000000000200000000000000000002000200000002000200000000000000000002000200000002000200000000000000000002000200020002000200000000FFFEFFFE00000000000200000000FFFEFFFEFFFEFFFE00000000000200000000FFFEFFFEFFFEFFFE00000000000200000000FFFEFFFEFFFEFFFEFFFEFFFE0000FFFEFFFEFFFEFFFEFFFEFFFE00000000000200000000FFFEFFFEFFFEFFFE00000000000000000000FFFEFFFEFFFEFFFE00000000000200000000FFFEFFFEFFFEFFFE00000000000200000000FFFEFFFEFFFEFFFE00000000000000000000FFFEFFFE0000000000020002000000020002000000000000000000020002000000020002000000000000000000020002000000020002000000000000000000000000FFFE0000000000000000000000000002000200000002000200000000000000000002000000000002000200000000000000000002000200000002000200000000000000000002000200000002000200000000FFFEFFFE00000000000000000000FFFEFFFE0000000000020002000000020002000000000000000000020002000000020002000000000000000000020002000000020002000000000000000000000000FFFE000000000000000000000000000200020000000200020000000000000000000000020000000200020000000000000000000200020000000200020000000000000000000200020000000200020000000000000000FFFEFFFEFFFEFFFEFFFE000000000002000200000000FFFE00000000000200020002000200000000FFFE00000000000200020002000200000000FFFE00000000000200020002000200020002000000020002000200020002000200000000FFFE00000000000200020002000000000000FFFE00000000000200020002000200000000FFFE00000000000200020002000200000000FFFE000000000002000200000000FFFEFFFEFFFEFFFEFFFE000000000002000200000000FFFE00000000000200020002000200000000FFFE00000000000200020002000200000000FFFE00000000000200020002000200020002000000020002000200020002000200000000FFFE00000000000200020000000200000000FFFE00000000000200020002000200000000FFFE00000000000200020002000200000000FFFE000000000002000200000000FFFEFFFEFFFEFFFEFFFE000000000002000200000000FFFE00000000000200020002000200000000FFFE00000000000200020002000200000000FFFE00000000000200020002000200020002000000020002000200020002000200000000FFFE00000000000200000002000200000000FFFE00000000000200020002000200000000FFFE00000000000200020002000200000000FFFE000000000002000200000000FFFEFFFEFFFEFFFEFFFE000000000002000200000000FFFE00000000000200020002000200000000FFFE00000000000200020002000200000000FFFE00000000000200020002000200020002000000020002000200020002000200000000FFFE00000000000000020002000200000000FFFE00000000000200020002000200000000FFFE00000000000200020002000200000000FFFE0000000000020002FFFEFFFE00000000000000000000FFFEFFFE0000000000020002000000020002000000000000000000020002000000020002000000000000000000020002000000020002000000000000000000000000FFFE0000000000000000000000000002000200000002000000000000000000000002000200000002000200000000000000000002000200000002000200000000000000000002000200000002000200000000FFFEFFFE00000000000000000000FFFEFFFE0000000000020002000000020002000000000000000000020002000000020002000000000000000000020002000000020002000000000000000000000000FFFE0000000000000000000000000002000200000000000200000000000000000002000200000002000200000000000000000002000200000002000200000000000000000002000200000002000200000000000000000002000200020002000200000000FFFEFFFE00000000000200000000FFFEFFFEFFFEFFFE00000000000200000000FFFEFFFEFFFEFFFE00000000000200000000FFFEFFFEFFFEFFFEFFFEFFFE0000FFFEFFFEFFFEFFFEFFFEFFFE00000000000000000000FFFEFFFEFFFEFFFE00000000000200000000FFFEFFFEFFFEFFFE00000000000200000000FFFEFFFEFFFEFFFE00000000000200000000FFFEFFFEFFFEFFFE00000000000000000000FFFEFFFE0000000000020002000000020002000000000000000000020002000000020002000000000000000000020002000000020002000000000000000000000000FFFE0000000000000000000000000002000000000002000200000000000000000002000200000002000200000000000000000002000200000002000200000000000000000002000200000002000200000000FFFEFFFE00000000000000000000FFFEFFFE0000000000020002000000020002000000000000000000020002000000020002000000000000000000020002000000020002000000000000000000000000FFFE000000000000000000000000000000020000000200020000000000000000000200020000000200020000000000000000000200020000000200020000000000000000000200020000000200020000000000000000FFFEFFFEFFFEFFFEFFFE000000000002000200000000FFFE00000000000200020002000200000000FFFE00000000000200020002000200000000FFFE00000000000200020002000200020002000000020002000200020002000000000000FFFE00000000000200020002000200000000FFFE00000000000200020002000200000000FFFE00000000000200020002000200000000FFFE000000000002000200000000FFFEFFFEFFFEFFFEFFFE000000000002000200000000FFFE00000000000200020002000200000000FFFE00000000000200020002000200000000FFFE00000000000200020002000200020002000000020002000200020000000200000000FFFE00000000000200020002000200000000FFFE00000000000200020002000200000000FFFE00000000000200020002000200000000FFFE000000000002000200000000FFFEFFFEFFFEFFFEFFFE000000000002000200000000FFFE00000000000200020002000200000000FFFE00000000000200020002000200000000FFFE00000000000200020002000200020002000000020002000200000002000200000000FFFE00000000000200020002000200000000FFFE00000000000200020002000200000000FFFE00000000000200020002000200000000FFFE000000000002000200000000FFFEFFFEFFFEFFFEFFFE000000000002000200000000FFFE00000000000200020002000200000000FFFE00000000000200020002000200000000FFFE00000000000200020002000200020002000000020002000000020002000200000000FFFE00000000000200020002000200000000FFFE00000000000200020002000200000000FFFE00000000000200020002000200000000FFFE000000000002000200000000FFFEFFFEFFFEFFFEFFFE000000000002000200000000FFFE00000000000200020002000200000000FFFE00000000000200020002000200000000FFFE00000000000200020002000200020002000000020000000200020002000200000000FFFE00000000000200020002000200000000FFFE00000000000200020002000200000000FFFE00000000000200020002000200000000FFFE000000000002000200000000FFFEFFFEFFFEFFFEFFFE000000000002000200000000FFFE00000000000200020002000200000000FFFE00000000000200020002000200000000FFFE00000000000200020002000200020002000000000002000200020002000200000000FFFE00000000000200020002000200000000FFFE00000000000200020002000200000000FFFE00000000000200020002000200000000FFFE000000000002000200020002000000000000000000000002000200000000FFFEFFFE0000FFFEFFFE0000000000000000FFFEFFFE0000FFFEFFFE0000000000000000FFFEFFFE0000FFFEFFFE0000000000000000000000000000000000000000000000000000FFFEFFFE0000FFFEFFFE0000000000000000FFFEFFFE0000FFFEFFFE0000000000000000FFFEFFFE0000FFFEFFFE0000000000000000FFFEFFFE0000FFFEFFFE0000000000000000FFFEFFFEFFFEFFFEFFFE000000000002000200000000FFFE00000000000200020002000200000000FFFE00000000000200020002000200000000FFFE00000000000200020002000200020000000000020002000200020002000200000000FFFE00000000000200020002000200000000FFFE00000000000200020002000200000000FFFE00000000000200020002000200000000FFFE000000000002000200000000FFFEFFFEFFFEFFFEFFFE000000000002000200000000FFFE00000000000200020002000200000000FFFE00000000000200020002000200000000FFFE00000000000200020002000200000002000000020002000200020002000200000000FFFE00000000000200020002000200000000FFFE00000000000200020002000200000000FFFE00000000000200020002000200000000FFFE000000000002000200000000FFFEFFFEFFFEFFFEFFFE000000000002000200000000FFFE00000000000200020002000200000000FFFE00000000000200020002000200000000FFFE00000000000200020002000000020002000000020002000200020002000200000000FFFE00000000000200020002000200000000FFFE00000000000200020002000200000000FFFE00000000000200020002000200000000FFFE000000000002000200000000FFFEFFFEFFFEFFFEFFFE000000000002000200000000FFFE00000000000200020002000200000000FFFE00000000000200020002000200000000FFFE00000000000200020000000200020002000000020002000200020002000200000000FFFE00000000000200020002000200000000FFFE00000000000200020002000200000000FFFE00000000000200020002000200000000FFFE000000000002000200000000FFFEFFFEFFFEFFFEFFFE000000000002000200000000FFFE00000000000200020002000200000000FFFE00000000000200020002000200000000FFFE00000000000200000002000200020002000000020002000200020002000200000000FFFE00000000000200020002000200000000FFFE00000000000200020002000200000000FFFE00000000000200020002000200000000FFFE000000000002000200000000FFFEFFFEFFFEFFFEFFFE000000000002000200000000FFFE00000000000200020002000200000000FFFE00000000000200020002000200000000FFFE00000000000000020002000200020002000000020002000200020002000200000000FFFE00000000000200020002000200000000FFFE00000000000200020002000200000000FFFE00000000000200020002000200000000FFFE0000000000020002FFFEFFFE00000000000000000000FFFEFFFE0000000000020002000000020002000000000000000000020002000000020002000000000000000000020002000000020000000000000000000000000000FFFE0000000000000000000000000002000200000002000200000000000000000002000200000002000200000000000000000002000200000002000200000000000000000002000200000002000200000000FFFEFFFE00000000000000000000FFFEFFFE0000000000020002000000020002000000000000000000020002000000020002000000000000000000020002000000000002000000000000000000000000FFFE0000000000000000000000000002000200000002000200000000000000000002000200000002000200000000000000000002000200000002000200000000000000000002000200000002000200000000000000000002000200020002000200000000FFFEFFFE00000000000200000000FFFEFFFEFFFEFFFE00000000000200000000FFFEFFFEFFFEFFFE00000000000000000000FFFEFFFEFFFEFFFEFFFEFFFE0000FFFEFFFEFFFEFFFEFFFEFFFE00000000000200000000FFFEFFFEFFFEFFFE00000000000200000000FFFEFFFEFFFEFFFE00000000000200000000FFFEFFFEFFFEFFFE00000000000200000000FFFEFFFEFFFEFFFE00000000000000000000FFFEFFFE0000000000020002000000020002000000000000000000020002000000020002000000000000000000020000000000020002000000000000000000000000FFFE0000000000000000000000000002000200000002000200000000000000000002000200000002000200000000000000000002000200000002000200000000000000000002000200000002000200000000FFFEFFFE00000000000000000000FFFEFFFE0000000000020002000000020002000000000000000000020002000000020002000000000000000000000002000000020002000000000000000000000000FFFE000000000000000000000000000200020000000200020000000000000000000200020000000200020000000000000000000200020000000200020000000000000000000200020000000200020000000000000000FFFEFFFEFFFEFFFEFFFE000000000002000200000000FFFE00000000000200020002000200000000FFFE00000000000200020002000000000000FFFE00000000000200020002000200020002000000020002000200020002000200000000FFFE00000000000200020002000200000000FFFE00000000000200020002000200000000FFFE00000000000200020002000200000000FFFE000000000002000200000000FFFEFFFEFFFEFFFEFFFE000000000002000200000000FFFE00000000000200020002000200000000FFFE00000000000200020000000200000000FFFE00000000000200020002000200020002000000020002000200020002000200000000FFFE00000000000200020002000200000000FFFE00000000000200020002000200000000FFFE00000000000200020002000200000000FFFE000000000002000200000000FFFEFFFEFFFEFFFEFFFE000000000002000200000000FFFE00000000000200020002000200000000FFFE00000000000200000002000200000000FFFE00000000000200020002000200020002000000020002000200020002000200000000FFFE00000000000200020002000200000000FFFE00000000000200020002000200000000FFFE00000000000200020002000200000000FFFE000000000002000200000000FFFEFFFEFFFEFFFEFFFE000000000002000200000000FFFE00000000000200020002000200000000FFFE00000000000000020002000200000000FFFE00000000000200020002000200020002000000020002000200020002000200000000FFFE00000000000200020002000200000000FFFE00000000000200020002000200000000FFFE00000000000200020002000200000000FFFE0000000000020002FFFEFFFE00000000000000000000FFFEFFFE0000000000020002000000020002000000000000000000020002000000020000000000000000000000020002000000020002000000000000000000000000FFFE0000000000000000000000000002000200000002000200000000000000000002000200000002000200000000000000000002000200000002000200000000000000000002000200000002000200000000FFFEFFFE00000000000000000000FFFEFFFE0000000000020002000000020002000000000000000000020002000000000002000000000000000000020002000000020002000000000000000000000000FFFE0000000000000000000000000002000200000002000200000000000000000002000200000002000200000000000000000002000200000002000200000000000000000002000200000002000200000000000000000002000200020002000200000000FFFEFFFE00000000000200000000FFFEFFFEFFFEFFFE00000000000000000000FFFEFFFEFFFEFFFE00000000000200000000FFFEFFFEFFFEFFFEFFFEFFFE0000FFFEFFFEFFFEFFFEFFFEFFFE00000000000200000000FFFEFFFEFFFEFFFE00000000000200000000FFFEFFFEFFFEFFFE00000000000200000000FFFEFFFEFFFEFFFE00000000000200000000FFFEFFFEFFFEFFFE00000000000000000000FFFEFFFE0000000000020002000000020002000000000000000000020000000000020002000000000000000000020002000000020002000000000000000000000000FFFE0000000000000000000000000002000200000002000200000000000000000002000200000002000200000000000000000002000200000002000200000000000000000002000200000002000200000000FFFEFFFE00000000000000000000FFFEFFFE0000000000020002000000020002000000000000000000000002000000020002000000000000000000020002000000020002000000000000000000000000FFFE000000000000000000000000000200020000000200020000000000000000000200020000000200020000000000000000000200020000000200020000000000000000000200020000000200020000000000000000FFFEFFFEFFFEFFFEFFFE000000000002000200000000FFFE00000000000200020002000000000000FFFE00000000000200020002000200000000FFFE00000000000200020002000200020002000000020002000200020002000200000000FFFE00000000000200020002000200000000FFFE00000000000200020002000200000000FFFE00000000000200020002000200000000FFFE000000000002000200000000FFFEFFFEFFFEFFFEFFFE000000000002000200000000FFFE00000000000200020000000200000000FFFE00000000000200020002000200000000FFFE00000000000200020002000200020002000000020002000200020002000200000000FFFE00000000000200020002000200000000FFFE00000000000200020002000200000000FFFE00000000000200020002000200000000FFFE000000000002000200000000FFFEFFFEFFFEFFFEFFFE000000000002000200000000FFFE00000000000200000002000200000000FFFE00000000000200020002000200000000FFFE00000000000200020002000200020002000000020002000200020002000200000000FFFE00000000000200020002000200000000FFFE00000000000200020002000200000000FFFE00000000000200020002000200000000FFFE000000000002000200000000FFFEFFFEFFFEFFFEFFFE000000000002000200000000FFFE00000000000000020002000200000000FFFE00000000000200020002000200000000FFFE00000000000200020002000200020002000000020002000200020002000200000000FFFE00000000000200020002000200000000FFFE00000000000200020002000200000000FFFE00000000000200020002000200000000FFFE0000000000020002FFFEFFFE00000000000000000000FFFEFFFE0000000000020002000000020000000000000000000000020002000000020002000000000000000000020002000000020002000000000000000000000000FFFE0000000000000000000000000002000200000002000200000000000000000002000200000002000200000000000000000002000200000002000200000000000000000002000200000002000200000000FFFEFFFE00000000000000000000FFFEFFFE0000000000020002000000000002000000000000000000020002000000020002000000000000000000020002000000020002000000000000000000000000FFFE0000000000000000000000000002000200000002000200000000000000000002000200000002000200000000000000000002000200000002000200000000000000000002000200000002000200000000000000000002000200020002000200000000FFFEFFFE00000000000000000000FFFEFFFEFFFEFFFE00000000000200000000FFFEFFFEFFFEFFFE00000000000200000000FFFEFFFEFFFEFFFEFFFEFFFE0000FFFEFFFEFFFEFFFEFFFEFFFE00000000000200000000FFFEFFFEFFFEFFFE00000000000200000000FFFEFFFEFFFEFFFE00000000000200000000FFFEFFFEFFFEFFFE00000000000200000000FFFEFFFEFFFEFFFE00000000000000000000FFFEFFFE0000000000020000000000020002000000000000000000020002000000020002000000000000000000020002000000020002000000000000000000000000FFFE0000000000000000000000000002000200000002000200000000000000000002000200000002000200000000000000000002000200000002000200000000000000000002000200000002000200000000FFFEFFFE00000000000000000000FFFEFFFE0000000000000002000000020002000000000000000000020002000000020002000000000000000000020002000000020002000000000000000000000000FFFE000000000000000000000000000200020000000200020000000000000000000200020000000200020000000000000000000200020000000200020000000000000000000200020000000200020000000000000000FFFEFFFEFFFEFFFEFFFE000000000002000000000000FFFE00000000000200020002000200000000FFFE00000000000200020002000200000000FFFE00000000000200020002000200020002000000020002000200020002000200000000FFFE00000000000200020002000200000000FFFE00000000000200020002000200000000FFFE00000000000200020002000200000000FFFE000000000002000200000000FFFEFFFEFFFEFFFEFFFE000000000000000200000000FFFE00000000000200020002000200000000FFFE00000000000200020002000200000000FFFE00000000000200020002000200020002000000020002000200020002000200000000FFFE00000000000200020002000200000000FFFE00000000000200020002000200000000FFFE00000000000200020002000200000000FFFE000000000002000200020002000000000000000000000002000000000000FFFEFFFE0000FFFEFFFE0000000000000000FFFEFFFE0000FFFEFFFE0000000000000000FFFEFFFE0000FFFEFFFE0000000000000000000000000002000000000000000000000000FFFEFFFE0000FFFEFFFE0000000000000000FFFEFFFE0000FFFEFFFE0000000000000000FFFEFFFE0000FFFEFFFE0000000000000000FFFEFFFE0000FFFEFFFE0000000000020002000000000000000000000000000200000000FFFEFFFE0000FFFEFFFE0000000000000000FFFEFFFE0000FFFEFFFE0000000000000000FFFEFFFE0000FFFEFFFE0000000000000000000000000002000000000000000000000000FFFEFFFE0000FFFEFFFE0000000000000000FFFEFFFE0000FFFEFFFE0000000000000000FFFEFFFE0000FFFEFFFE0000000000000000FFFEFFFE0000FFFEFFFE00000000000000000002000200020002000000000000FFFEFFFE00000000000200000000FFFEFFFEFFFEFFFE00000000000200000000FFFEFFFEFFFEFFFE00000000000200000000FFFEFFFEFFFEFFFEFFFEFFFE0000FFFEFFFEFFFEFFFEFFFEFFFE00000000000200000000FFFEFFFEFFFEFFFE00000000000200000000FFFEFFFEFFFEFFFE00000000000200000000FFFEFFFEFFFEFFFE00000000000200000000FFFEFFFE000000000002000200020000000200000000FFFEFFFE00000000000200000000FFFEFFFEFFFEFFFE00000000000200000000FFFEFFFEFFFEFFFE00000000000200000000FFFEFFFEFFFEFFFEFFFEFFFE0000FFFEFFFEFFFEFFFEFFFEFFFE00000000000200000000FFFEFFFEFFFEFFFE00000000000200000000FFFEFFFEFFFEFFFE00000000000200000000FFFEFFFEFFFEFFFE00000000000200000000FFFEFFFE000000000002000200000002000200000000FFFEFFFE00000000000200000000FFFEFFFEFFFEFFFE00000000000200000000FFFEFFFEFFFEFFFE00000000000200000000FFFEFFFEFFFEFFFEFFFEFFFE0000FFFEFFFEFFFEFFFEFFFEFFFE00000000000200000000FFFEFFFEFFFEFFFE00000000000200000000FFFEFFFEFFFEFFFE00000000000200000000FFFEFFFEFFFEFFFE00000000000200000000FFFEFFFE000000000002000000020002000200000000FFFEFFFE00000000000200000000FFFEFFFEFFFEFFFE00000000000200000000FFFEFFFEFFFEFFFE00000000000200000000FFFEFFFEFFFEFFFEFFFEFFFE0000FFFEFFFEFFFEFFFEFFFEFFFE00000000000200000000FFFEFFFEFFFEFFFE00000000000200000000FFFEFFFEFFFEFFFE00000000000200000000FFFEFFFEFFFEFFFE00000000000200000000FFFEFFFE000000000000000200020002000200000000FFFEFFFE00000000000200000000FFFEFFFEFFFEFFFE00000000000200000000FFFEFFFEFFFEFFFE00000000000200000000FFFEFFFEFFFEFFFEFFFEFFFE0000FFFEFFFEFFFEFFFEFFFEFFFE00000000000200000000FFFEFFFEFFFEFFFE00000000000200000000FFFEFFFEFFFEFFFE00000000000200000000FFFEFFFEFFFEFFFE00000000000200000000FFFEFFFE00020000000000000000000000000002000200000000FFFEFFFE0000FFFEFFFE0000000000000000FFFEFFFE0000FFFEFFFE0000000000000000FFFEFFFE0000FFFEFFFE0000000000000000000000000002000000000000000000000000FFFEFFFE0000FFFEFFFE0000000000000000FFFEFFFE0000FFFEFFFE0000000000000000FFFEFFFE0000FFFEFFFE0000000000000000FFFEFFFE0000FFFEFFFE0000000000000002000000000000000000000002000200000000FFFEFFFE0000FFFEFFFE0000000000000000FFFEFFFE0000FFFEFFFE0000000000000000FFFEFFFE0000FFFEFFFE0000000000000000000000000002000000000000000000000000FFFEFFFE0000FFFEFFFE0000000000000000FFFEFFFE0000FFFEFFFE0000000000000000FFFEFFFE0000FFFEFFFE0000000000000000FFFEFFFE0000FFFEFFFE00000000